#ifndef BLINK_MODEL_DATA_H
#define BLINK_MODEL_DATA_H

const unsigned char blink_model_tflite[] = {
  0x1c, 0x00, 0x00, 0x00, 0x54, 0x46, 0x4c, 0x33, 0x14, 0x00, 0x20, 0x00, 0x1c, 0x00, 0x18, 0x00, 0x14, 0x00, 0x10, 0x00, 0x0c, 0x00, 0x00, 0x00, 0x08, 0x00, 0x04, 0x00, 0x14, 0x00, 0x00, 0x00, 0x1c, 0x00, 0x00, 0x00, 0x8c, 0x00, 0x00, 0x00, 0xe4, 0x00, 0x00, 0x00, 0xd0, 0x05, 0x00, 0x00, 0xe0, 0x05, 0x00, 0x00, 0x70, 0x0b, 0x00, 0x00, 0x03, 0x00, 0x00, 0x00, 0x01, 0x00, 0x00, 0x00, 0x04, 0x00, 0x00, 0x00, 0xe2, 0xf9, 0xff, 0xff, 0x0c, 0x00, 0x00, 0x00, 0x1c, 0x00, 0x00, 0x00, 0x3c, 0x00, 0x00, 0x00, 0x0f, 0x00, 0x00, 0x00, 0x73, 0x65, 0x72, 0x76, 0x69, 0x6e, 0x67, 0x5f, 0x64, 0x65, 0x66, 0x61, 0x75, 0x6c, 0x74, 0x00, 0x01, 0x00, 0x00, 0x00, 0x04, 0x00, 0x00, 0x00, 0x90, 0xff, 0xff, 0xff, 0x0a, 0x00, 0x00, 0x00, 0x04, 0x00, 0x00, 0x00, 0x08, 0x00, 0x00, 0x00, 0x6f, 0x75, 0x74, 0x70, 0x75, 0x74, 0x5f, 0x30, 0x00, 0x00, 0x00, 0x00, 0x01, 0x00, 0x00, 0x00, 0x04, 0x00, 0x00, 0x00, 0xd2, 0xfa, 0xff, 0xff, 0x04, 0x00, 0x00, 0x00, 0x0c, 0x00, 0x00, 0x00, 0x6b, 0x65, 0x72, 0x61, 0x73, 0x5f, 0x74, 0x65, 0x6e, 0x73, 0x6f, 0x72, 0x00, 0x00, 0x00, 0x00, 0x02, 0x00, 0x00, 0x00, 0x34, 0x00, 0x00, 0x00, 0x04, 0x00, 0x00, 0x00, 0xdc, 0xff, 0xff, 0xff, 0x0d, 0x00, 0x00, 0x00, 0x04, 0x00, 0x00, 0x00, 0x13, 0x00, 0x00, 0x00, 0x43, 0x4f, 0x4e, 0x56, 0x45, 0x52, 0x53, 0x49, 0x4f, 0x4e, 0x5f, 0x4d, 0x45, 0x54, 0x41, 0x44, 0x41, 0x54, 0x41, 0x00, 0x08, 0x00, 0x0c, 0x00, 0x08, 0x00, 0x04, 0x00, 0x08, 0x00, 0x00, 0x00, 0x0c, 0x00, 0x00, 0x00, 0x04, 0x00, 0x00, 0x00, 0x13, 0x00, 0x00, 0x00, 0x6d, 0x69, 0x6e, 0x5f, 0x72, 0x75, 0x6e, 0x74, 0x69, 0x6d, 0x65, 0x5f, 0x76, 0x65, 0x72, 0x73, 0x69, 0x6f, 0x6e, 0x00, 0x0e, 0x00, 0x00, 0x00, 0xe8, 0x04, 0x00, 0x00, 0xe0, 0x04, 0x00, 0x00, 0xb0, 0x04, 0x00, 0x00, 0x94, 0x04, 0x00, 0x00, 0x64, 0x04, 0x00, 0x00, 0x54, 0x02, 0x00, 0x00, 0x04, 0x01, 0x00, 0x00, 0xb4, 0x00, 0x00, 0x00, 0xac, 0x00, 0x00, 0x00, 0xa4, 0x00, 0x00, 0x00, 0x9c, 0x00, 0x00, 0x00, 0x94, 0x00, 0x00, 0x00, 0x74, 0x00, 0x00, 0x00, 0x04, 0x00, 0x00, 0x00, 0x86, 0xfb, 0xff, 0xff, 0x04, 0x00, 0x00, 0x00, 0x60, 0x00, 0x00, 0x00, 0x10, 0x00, 0x00, 0x00, 0x00, 0x00, 0x00, 0x00, 0x08, 0x00, 0x0e, 0x00, 0x08, 0x00, 0x04, 0x00, 0x08, 0x00, 0x00, 0x00, 0x10, 0x00, 0x00, 0x00, 0x24, 0x00, 0x00, 0x00, 0x00, 0x00, 0x06, 0x00, 0x08, 0x00, 0x04, 0x00, 0x06, 0x00, 0x00, 0x00, 0x04, 0x00, 0x00, 0x00, 0x00, 0x00, 0x00, 0x00, 0x0c, 0x00, 0x18, 0x00, 0x14, 0x00, 0x10, 0x00, 0x0c, 0x00, 0x04, 0x00, 0x0c, 0x00, 0x00, 0x00, 0xa4, 0xde, 0x74, 0x4d, 0x36, 0x4d, 0x6f, 0x09, 0x02, 0x00, 0x00, 0x00, 0x02, 0x00, 0x00, 0x00, 0x04, 0x00, 0x00, 0x00, 0x06, 0x00, 0x00, 0x00, 0x32, 0x2e, 0x32, 0x30, 0x2e, 0x30, 0x00, 0x00, 0xf2, 0xfb, 0xff, 0xff, 0x04, 0x00, 0x00, 0x00, 0x10, 0x00, 0x00, 0x00, 0x31, 0x2e, 0x31, 0x34, 0x2e, 0x30, 0x00, 0x00, 0x00, 0x00, 0x00, 0x00, 0x00, 0x00, 0x00, 0x00, 0x64, 0xf6, 0xff, 0xff, 0x68, 0xf6, 0xff, 0xff, 0x6c, 0xf6, 0xff, 0xff, 0x70, 0xf6, 0xff, 0xff, 0x1e, 0xfc, 0xff, 0xff, 0x04, 0x00, 0x00, 0x00, 0x40, 0x00, 0x00, 0x00, 0xbb, 0x1d, 0x21, 0x3e, 0x09, 0x89, 0x87, 0x3d, 0x6c, 0x41, 0x54, 0xbe, 0x23, 0x12, 0x64, 0xbb, 0x30, 0x26, 0x2b, 0x3e, 0x9b, 0xdf, 0x64, 0x3e, 0xbb, 0x98, 0x3d, 0x3e, 0x43, 0x6b, 0x6d, 0x3e, 0xff, 0x7a, 0xb5, 0x3e, 0x39, 0xa8, 0x43, 0xbe, 0x20, 0x53, 0x07, 0x3e, 0x9c, 0x14, 0x21, 0x3e, 0xf0, 0xc1, 0x67, 0x3e, 0x3b, 0x99, 0x4c, 0x3d, 0x59, 0x05, 0x18, 0x3e, 0x65, 0xe2, 0x4a, 0x3d, 0x6a, 0xfc, 0xff, 0xff, 0x04, 0x00, 0x00, 0x00, 0x40, 0x01, 0x00, 0x00, 0xad, 0x11, 0xc4, 0xbd, 0x85, 0x2c, 0xd5, 0x3d, 0x8a, 0xd6, 0xc7, 0xbd, 0xa5, 0x12, 0x32, 0x3f, 0x18, 0x96, 0x31, 0x3f, 0xe5, 0xcd, 0xf8, 0xbe, 0xb5, 0x5a, 0xe8, 0x3e, 0xb4, 0x05, 0xb8, 0x3e, 0x99, 0x7b, 0x9d, 0x3d, 0xbc, 0x13, 0xb8, 0x3e, 0x17, 0x33, 0xc0, 0xbe, 0xe4, 0x1c, 0x1e, 0xbf, 0x9a, 0xe3, 0x39, 0x3e, 0x04, 0xf2, 0xe5, 0xbe, 0x5e, 0xe7, 0x0f, 0xbf, 0x47, 0xd4, 0x22, 0x3f, 0x97, 0x6e, 0x82, 0x3e, 0x5f, 0xdb, 0x00, 0xbe, 0x7e, 0xa4, 0x3a, 0x3f, 0x32, 0x23, 0x95, 0x3d, 0xc0, 0x3f, 0x32, 0x3f, 0xc0, 0xa5, 0x02, 0xbd, 0x57, 0xf7, 0xcb, 0x3e, 0x0f, 0xf9, 0x05, 0x3f, 0x94, 0x20, 0x01, 0x3f, 0xa9, 0xe5, 0xf9, 0x3e, 0xee, 0x53, 0x89, 0x3e, 0x61, 0xa7, 0x96, 0xbe, 0x9c, 0xa7, 0xaf, 0x3d, 0x36, 0x70, 0x03, 0xbf, 0x6b, 0x28, 0xb0, 0x3e, 0x03, 0x07, 0x5e, 0x3e, 0xc2, 0x22, 0x01, 0xbf, 0xa4, 0x11, 0x0e, 0x3f, 0xc0, 0x54, 0xea, 0xbe, 0x8d, 0xf0, 0xb5, 0xbe, 0x29, 0x8d, 0xf8, 0x3e, 0xfb, 0x7a, 0x1e, 0xbf, 0x16, 0x60, 0x1d, 0xbd, 0x98, 0x13, 0x23, 0x3e, 0x54, 0x7f, 0x21, 0x3f, 0x83, 0x47, 0x81, 0xbe, 0x87, 0xfe, 0x04, 0x3e, 0xec, 0xa2, 0x35, 0x3f, 0x77, 0x69, 0xcf, 0xbe, 0x6e, 0x80, 0x31, 0xbf, 0x97, 0x26, 0xba, 0xbe, 0xc5, 0x0f, 0x01, 0x3e, 0xa6, 0x9c, 0x4d, 0xbf, 0x6c, 0x59, 0xd5, 0xbe, 0x88, 0x2f, 0xad, 0x3d, 0x79, 0x0d, 0x42, 0xbf, 0xaf, 0x01, 0x07, 0xbf, 0xe5, 0x9b, 0x95, 0xbe, 0xb9, 0x08, 0xf7, 0xbe, 0xe5, 0x26, 0xea, 0x3e, 0x7f, 0xf7, 0xa7, 0x3e, 0x8a, 0x51, 0xf2, 0xbe, 0x25, 0x90, 0x01, 0xbf, 0x11, 0xd9, 0x09, 0x3f, 0xbf, 0x3c, 0xe9, 0xbe, 0x72, 0xdd, 0x48, 0xbf, 0x46, 0xe5, 0xe5, 0xbe, 0x59, 0xd5, 0x67, 0x3e, 0x0b, 0x0d, 0x6d, 0xbf, 0x2f, 0x09, 0x5f, 0x3e, 0xcc, 0x73, 0xd3, 0x3e, 0xd0, 0x90, 0x0a, 0xbf, 0x7a, 0x66, 0x1e, 0xbe, 0xa1, 0x07, 0xff, 0xbd, 0xf2, 0x36, 0xe4, 0xbe, 0x33, 0xd5, 0xe6, 0xbe, 0x79, 0x61, 0x86, 0x3d, 0xe9, 0xdf, 0xc8, 0xbe, 0x03, 0x1b, 0x10, 0xbe, 0xf2, 0x73, 0x48, 0xbe, 0xa2, 0x85, 0x2b, 0xbe, 0x61, 0x37, 0xfb, 0xbe, 0xf3, 0xf2, 0x0a, 0xbf, 0x53, 0x93, 0x10, 0xbf, 0xb6, 0xfd, 0xff, 0xff, 0x04, 0x00, 0x00, 0x00, 0x00, 0x02, 0x00, 0x00, 0x95, 0xb0, 0xda, 0xbe, 0xba, 0xf9, 0x7c, 0x3e, 0x8c, 0x57, 0x98, 0xbc, 0x63, 0x93, 0xd0, 0xbc, 0xff, 0xfd, 0x49, 0xbf, 0x4a, 0x3b, 0x04, 0x3f, 0x69, 0x7d, 0x29, 0x3f, 0x12, 0x0b, 0x9e, 0x3e, 0x3d, 0x53, 0xcf, 0x3e, 0x65, 0x46, 0xfe, 0x3c, 0x74, 0x27, 0xe6, 0x3d, 0xd1, 0x9a, 0xe2, 0x3d, 0xf9, 0x2d, 0xa6, 0x3e, 0xfb, 0x6f, 0x6f, 0x3e, 0x54, 0xb1, 0x8d, 0xbe, 0xc7, 0x52, 0x86, 0x3e, 0x62, 0x1f, 0xec, 0xbe, 0xe8, 0xc4, 0xb3, 0x3d, 0x33, 0xb1, 0x2b, 0xbf, 0x93, 0xfe, 0xe1, 0xbe, 0xdf, 0x43, 0xc7, 0xbe, 0xae, 0xbb, 0xf4, 0x3e, 0x33, 0x4e, 0x70, 0x3f, 0x69, 0x4d, 0x22, 0x3f, 0x4e, 0x90, 0x00, 0x3f, 0xcb, 0x94, 0x1d, 0xbf, 0xc8, 0x39, 0x88, 0x3e, 0xa7, 0xea, 0x41, 0x3e, 0x49, 0xc5, 0x09, 0x3f, 0x15, 0xa0, 0x48, 0x3e, 0x5d, 0xbe, 0xdb, 0x3d, 0x85, 0x1c, 0x47, 0x3d, 0x99, 0xab, 0xcc, 0x3e, 0x6c, 0xaa, 0x15, 0x3f, 0x70, 0x80, 0xc9, 0xbe, 0x86, 0x91, 0x42, 0x3e, 0x3e, 0x54, 0xe4, 0x3e, 0x4e, 0x21, 0xa3, 0xbd, 0xd1, 0xab, 0xde, 0x3b, 0x1d, 0xe7, 0x95, 0xbe, 0x06, 0x61, 0xd8, 0x3e, 0x9b, 0xea, 0xda, 0xbe, 0xf8, 0x15, 0xb0, 0xbc, 0x48, 0x65, 0xe5, 0x3e, 0xb9, 0x24, 0x95, 0xbe, 0x58, 0xc4, 0xa0, 0x3e, 0x95, 0xb5, 0xab, 0xbe, 0xb9, 0x1a, 0xd8, 0xbe, 0xdc, 0x48, 0x14, 0x3f, 0x2a, 0x80, 0xbf, 0xba, 0x2d, 0x4c, 0xda, 0xbe, 0xd8, 0xbb, 0xb2, 0x3e, 0xcb, 0x48, 0x0d, 0x3f, 0x8d, 0x15, 0x62, 0xbe, 0x76, 0xef, 0x49, 0x3e, 0x24, 0x8e, 0xe1, 0x3e, 0x8b, 0xd6, 0x16, 0x3f, 0xae, 0x4c, 0x91, 0xbd, 0xb9, 0xe8, 0xcf, 0xbe, 0x77, 0xc4, 0x03, 0xbe, 0x22, 0x06, 0x1d, 0xbf, 0xae, 0x1f, 0x32, 0xbe, 0x5a, 0x5d, 0x40, 0xbf, 0xec, 0xa2, 0x3f, 0xbf, 0xd5, 0xd5, 0x44, 0x3f, 0xd2, 0x4d, 0x00, 0x3d, 0x5a, 0xd5, 0xf3, 0xbd, 0x7b, 0x24, 0x23, 0x3e, 0xf0, 0x73, 0xa3, 0x3e, 0xfb, 0xa0, 0x03, 0x3f, 0x03, 0x96, 0xf8, 0xbc, 0xfa, 0xf1, 0x43, 0x3f, 0x76, 0x35, 0x2c, 0xbe, 0x2f, 0xa0, 0xc0, 0xbd, 0x97, 0x66, 0x16, 0xbf, 0xec, 0x21, 0x42, 0x3f, 0xe1, 0x7b, 0x22, 0xbf, 0x1a, 0x83, 0x51, 0xbd, 0x70, 0x58, 0x0e, 0xbf, 0xc0, 0x4a, 0xe9, 0xbd, 0x9a, 0x1d, 0x1f, 0xbf, 0x6a, 0x1f, 0x27, 0xbf, 0x3a, 0x55, 0x13, 0x3f, 0xd7, 0x31, 0x64, 0x3e, 0x9b, 0x8e, 0x8f, 0xbc, 0x06, 0x6f, 0x10, 0xbf, 0xd8, 0x56, 0x83, 0xbf, 0x6a, 0x12, 0xc2, 0x3e, 0x18, 0x5b, 0x1e, 0xbf, 0x99, 0xd8, 0xc4, 0xbd, 0x7a, 0x27, 0x9a, 0x3e, 0xb1, 0x35, 0x0c, 0xbf, 0x90, 0xd5, 0xa6, 0x3e, 0xa4, 0x1d, 0x98, 0xbe, 0xc9, 0xb6, 0x01, 0x3f, 0x95, 0x9b, 0xcd, 0x3e, 0x14, 0xcc, 0x34, 0xbe, 0x10, 0x94, 0x2e, 0xbe, 0x63, 0xcd, 0x0e, 0x3e, 0xb8, 0xf6, 0xfa, 0x3c, 0xa6, 0xf9, 0x5f, 0xbd, 0x0e, 0x00, 0x47, 0xbe, 0x8c, 0x95, 0x56, 0xbf, 0x5a, 0x06, 0xb7, 0xbe, 0x18, 0xb7, 0x70, 0xbf, 0xea, 0xc6, 0x29, 0x3f, 0x78, 0x93, 0xd3, 0x3e, 0xff, 0xc2, 0x58, 0xbf, 0x78, 0x27, 0x08, 0x3f, 0x8a, 0x7a, 0x43, 0xbe, 0xe0, 0x0a, 0x1f, 0x3e, 0x7f, 0x3c, 0xce, 0x3e, 0x54, 0x9a, 0x72, 0xbe, 0x5b, 0xf1, 0x0f, 0xbe, 0xe6, 0xce, 0x1b, 0xbe, 0x63, 0xd0, 0x94, 0xbe, 0xef, 0x50, 0x86, 0xbe, 0xbf, 0xfb, 0x80, 0xbe, 0x6a, 0xee, 0x30, 0xbf, 0x46, 0x90, 0xe2, 0xbe, 0x63, 0x76, 0x5f, 0xbf, 0x0b, 0x1a, 0x2a, 0x3f, 0x74, 0xf1, 0x17, 0x3f, 0x26, 0x55, 0x1e, 0xbf, 0xf9, 0x2a, 0xa9, 0x3e, 0xe8, 0x30, 0x03, 0xbf, 0xb1, 0x93, 0x3b, 0xbd, 0x2d, 0xbe, 0x03, 0x3f, 0xc2, 0xff, 0xff, 0xff, 0x04, 0x00, 0x00, 0x00, 0x20, 0x00, 0x00, 0x00, 0x27, 0x6a, 0xae, 0x3e, 0xdd, 0xb5, 0xb0, 0x3f, 0x82, 0x89, 0xac, 0xbf, 0x1e, 0xe7, 0x9d, 0xbf, 0x0c, 0x75, 0x84, 0xbf, 0x3c, 0x0b, 0x05, 0xbf, 0x6e, 0xcb, 0x64, 0xbf, 0xe7, 0x6c, 0xe2, 0xbe, 0xee, 0xff, 0xff, 0xff, 0x04, 0x00, 0x00, 0x00, 0x04, 0x00, 0x00, 0x00, 0xe7, 0x9b, 0xc9, 0x3d, 0x00, 0x00, 0x06, 0x00, 0x08, 0x00, 0x04, 0x00, 0x06, 0x00, 0x00, 0x00, 0x04, 0x00, 0x00, 0x00, 0x20, 0x00, 0x00, 0x00, 0x0e, 0xd8, 0xfe, 0x3d, 0xb3, 0xde, 0x54, 0x3e, 0x4f, 0xbb, 0x81, 0x3d, 0xce, 0x72, 0x5b, 0x3e, 0x65, 0xc9, 0x96, 0x3e, 0x78, 0xe4, 0xd4, 0xbd, 0x58, 0x6a, 0x6f, 0xbd, 0x45, 0x45, 0xc4, 0xbb, 0x88, 0xfa, 0xff, 0xff, 0x8c, 0xfa, 0xff, 0xff, 0x0f, 0x00, 0x00, 0x00, 0x4d, 0x4c, 0x49, 0x52, 0x20, 0x43, 0x6f, 0x6e, 0x76, 0x65, 0x72, 0x74, 0x65, 0x64, 0x2e, 0x00, 0x01, 0x00, 0x00, 0x00, 0x14, 0x00, 0x00, 0x00, 0x00, 0x00, 0x0e, 0x00, 0x18, 0x00, 0x14, 0x00, 0x10, 0x00, 0x0c, 0x00, 0x08, 0x00, 0x04, 0x00, 0x0e, 0x00, 0x00, 0x00, 0x14, 0x00, 0x00, 0x00, 0x1c, 0x00, 0x00, 0x00, 0x18, 0x01, 0x00, 0x00, 0x1c, 0x01, 0x00, 0x00, 0x20, 0x01, 0x00, 0x00, 0x04, 0x00, 0x00, 0x00, 0x6d, 0x61, 0x69, 0x6e, 0x00, 0x00, 0x00, 0x00, 0x04, 0x00, 0x00, 0x00, 0xc0, 0x00, 0x00, 0x00, 0x78, 0x00, 0x00, 0x00, 0x34, 0x00, 0x00, 0x00, 0x10, 0x00, 0x00, 0x00, 0x00, 0x00, 0x0a, 0x00, 0x10, 0x00, 0x0c, 0x00, 0x08, 0x00, 0x04, 0x00, 0x0a, 0x00, 0x00, 0x00, 0x0c, 0x00, 0x00, 0x00, 0x10, 0x00, 0x00, 0x00, 0x01, 0x00, 0x00, 0x00, 0x01, 0x00, 0x00, 0x00, 0x0a, 0x00, 0x00, 0x00, 0x01, 0x00, 0x00, 0x00, 0x09, 0x00, 0x00, 0x00, 0xce, 0xff, 0xff, 0xff, 0x10, 0x00, 0x00, 0x00, 0x00, 0x00, 0x00, 0x08, 0x0c, 0x00, 0x00, 0x00, 0x10, 0x00, 0x00, 0x00, 0x34, 0xfb, 0xff, 0xff, 0x01, 0x00, 0x00, 0x00, 0x09, 0x00, 0x00, 0x00, 0x03, 0x00, 0x00, 0x00, 0x08, 0x00, 0x00, 0x00, 0x03, 0x00, 0x00, 0x00, 0x02, 0x00, 0x00, 0x00, 0x00, 0x00, 0x0e, 0x00, 0x14, 0x00, 0x00, 0x00, 0x10, 0x00, 0x0c, 0x00, 0x0b, 0x00, 0x04, 0x00, 0x0e, 0x00, 0x00, 0x00, 0x10, 0x00, 0x00, 0x00, 0x00, 0x00, 0x00, 0x08, 0x10, 0x00, 0x00, 0x00, 0x14, 0x00, 0x00, 0x00, 0xba, 0xff, 0xff, 0xff, 0x00, 0x00, 0x00, 0x01, 0x01, 0x00, 0x00, 0x00, 0x08, 0x00, 0x00, 0x00, 0x03, 0x00, 0x00, 0x00, 0x07, 0x00, 0x00, 0x00, 0x04, 0x00, 0x00, 0x00, 0x01, 0x00, 0x00, 0x00, 0x00, 0x00, 0x0e, 0x00, 0x16, 0x00, 0x00, 0x00, 0x10, 0x00, 0x0c, 0x00, 0x0b, 0x00, 0x04, 0x00, 0x0e, 0x00, 0x00, 0x00, 0x18, 0x00, 0x00, 0x00, 0x00, 0x00, 0x00, 0x08, 0x18, 0x00, 0x00, 0x00, 0x1c, 0x00, 0x00, 0x00, 0x00, 0x00, 0x06, 0x00, 0x08, 0x00, 0x07, 0x00, 0x06, 0x00, 0x00, 0x00, 0x00, 0x00, 0x00, 0x01, 0x01, 0x00, 0x00, 0x00, 0x07, 0x00, 0x00, 0x00, 0x03, 0x00, 0x00, 0x00, 0x00, 0x00, 0x00, 0x00, 0x05, 0x00, 0x00, 0x00, 0x06, 0x00, 0x00, 0x00, 0x01, 0x00, 0x00, 0x00, 0x0a, 0x00, 0x00, 0x00, 0x01, 0x00, 0x00, 0x00, 0x00, 0x00, 0x00, 0x00, 0x0b, 0x00, 0x00, 0x00, 0xe4, 0x03, 0x00, 0x00, 0x90, 0x03, 0x00, 0x00, 0x3c, 0x03, 0x00, 0x00, 0xfc, 0x02, 0x00, 0x00, 0xbc, 0x02, 0x00, 0x00, 0x70, 0x02, 0x00, 0x00, 0x0c, 0x02, 0x00, 0x00, 0x78, 0x01, 0x00, 0x00, 0xdc, 0x00, 0x00, 0x00, 0x60, 0x00, 0x00, 0x00, 0x04, 0x00, 0x00, 0x00, 0x5e, 0xfc, 0xff, 0xff, 0x00, 0x00, 0x00, 0x01, 0x14, 0x00, 0x00, 0x00, 0x1c, 0x00, 0x00, 0x00, 0x1c, 0x00, 0x00, 0x00, 0x0b, 0x00, 0x00, 0x00, 0x34, 0x00, 0x00, 0x00, 0x02, 0x00, 0x00, 0x00, 0xff, 0xff, 0xff, 0xff, 0x01, 0x00, 0x00, 0x00, 0x48, 0xfc, 0xff, 0xff, 0x1b, 0x00, 0x00, 0x00, 0x53, 0x74, 0x61, 0x74, 0x65, 0x66, 0x75, 0x6c, 0x50, 0x61, 0x72, 0x74, 0x69, 0x74, 0x69, 0x6f, 0x6e, 0x65, 0x64, 0x43, 0x61, 0x6c, 0x6c, 0x5f, 0x31, 0x3a, 0x30, 0x00, 0x02, 0x00, 0x00, 0x00, 0x01, 0x00, 0x00, 0x00, 0x01, 0x00, 0x00, 0x00, 0xb6, 0xfc, 0xff, 0xff, 0x00, 0x00, 0x00, 0x01, 0x14, 0x00, 0x00, 0x00, 0x1c, 0x00, 0x00, 0x00, 0x1c, 0x00, 0x00, 0x00, 0x0a, 0x00, 0x00, 0x00, 0x54, 0x00, 0x00, 0x00, 0x02, 0x00, 0x00, 0x00, 0xff, 0xff, 0xff, 0xff, 0x01, 0x00, 0x00, 0x00, 0xa0, 0xfc, 0xff, 0xff, 0x38, 0x00, 0x00, 0x00, 0x73, 0x65, 0x71, 0x75, 0x65, 0x6e, 0x74, 0x69, 0x61, 0x6c, 0x5f, 0x31, 0x2f, 0x64, 0x65, 0x6e, 0x73, 0x65, 0x5f, 0x32, 0x5f, 0x31, 0x2f, 0x4d, 0x61, 0x74, 0x4d, 0x75, 0x6c, 0x3b, 0x73, 0x65, 0x71, 0x75, 0x65, 0x6e, 0x74, 0x69, 0x61, 0x6c, 0x5f, 0x31, 0x2f, 0x64, 0x65, 0x6e, 0x73, 0x65, 0x5f, 0x32, 0x5f, 0x31, 0x2f, 0x41, 0x64, 0x64, 0x00, 0x00, 0x00, 0x00, 0x02, 0x00, 0x00, 0x00, 0x01, 0x00, 0x00, 0x00, 0x01, 0x00, 0x00, 0x00, 0x2e, 0xfd, 0xff, 0xff, 0x00, 0x00, 0x00, 0x01, 0x14, 0x00, 0x00, 0x00, 0x1c, 0x00, 0x00, 0x00, 0x1c, 0x00, 0x00, 0x00, 0x09, 0x00, 0x00, 0x00, 0x74, 0x00, 0x00, 0x00, 0x02, 0x00, 0x00, 0x00, 0xff, 0xff, 0xff, 0xff, 0x08, 0x00, 0x00, 0x00, 0x18, 0xfd, 0xff, 0xff, 0x58, 0x00, 0x00, 0x00, 0x73, 0x65, 0x71, 0x75, 0x65, 0x6e, 0x74, 0x69, 0x61, 0x6c, 0x5f, 0x31, 0x2f, 0x64, 0x65, 0x6e, 0x73, 0x65, 0x5f, 0x31, 0x5f, 0x32, 0x2f, 0x4d, 0x61, 0x74, 0x4d, 0x75, 0x6c, 0x3b, 0x73, 0x65, 0x71, 0x75, 0x65, 0x6e, 0x74, 0x69, 0x61, 0x6c, 0x5f, 0x31, 0x2f, 0x64, 0x65, 0x6e, 0x73, 0x65, 0x5f, 0x31, 0x5f, 0x32, 0x2f, 0x52, 0x65, 0x6c, 0x75, 0x3b, 0x73, 0x65, 0x71, 0x75, 0x65, 0x6e, 0x74, 0x69, 0x61, 0x6c, 0x5f, 0x31, 0x2f, 0x64, 0x65, 0x6e, 0x73, 0x65, 0x5f, 0x31, 0x5f, 0x32, 0x2f, 0x42, 0x69, 0x61, 0x73, 0x41, 0x64, 0x64, 0x00, 0x00, 0x00, 0x00, 0x02, 0x00, 0x00, 0x00, 0x01, 0x00, 0x00, 0x00, 0x08, 0x00, 0x00, 0x00, 0xc6, 0xfd, 0xff, 0xff, 0x00, 0x00, 0x00, 0x01, 0x14, 0x00, 0x00, 0x00, 0x1c, 0x00, 0x00, 0x00, 0x1c, 0x00, 0x00, 0x00, 0x08, 0x00, 0x00, 0x00, 0x6c, 0x00, 0x00, 0x00, 0x02, 0x00, 0x00, 0x00, 0xff, 0xff, 0xff, 0xff, 0x10, 0x00, 0x00, 0x00, 0xb0, 0xfd, 0xff, 0xff, 0x52, 0x00, 0x00, 0x00, 0x73, 0x65, 0x71, 0x75, 0x65, 0x6e, 0x74, 0x69, 0x61, 0x6c, 0x5f, 0x31, 0x2f, 0x64, 0x65, 0x6e, 0x73, 0x65, 0x5f, 0x31, 0x2f, 0x4d, 0x61, 0x74, 0x4d, 0x75, 0x6c, 0x3b, 0x73, 0x65, 0x71, 0x75, 0x65, 0x6e, 0x74, 0x69, 0x61, 0x6c, 0x5f, 0x31, 0x2f, 0x64, 0x65, 0x6e, 0x73, 0x65, 0x5f, 0x31, 0x2f, 0x52, 0x65, 0x6c, 0x75, 0x3b, 0x73, 0x65, 0x71, 0x75, 0x65, 0x6e, 0x74, 0x69, 0x61, 0x6c, 0x5f, 0x31, 0x2f, 0x64, 0x65, 0x6e, 0x73, 0x65, 0x5f, 0x31, 0x2f, 0x42, 0x69, 0x61, 0x73, 0x41, 0x64, 0x64, 0x00, 0x00, 0x02, 0x00, 0x00, 0x00, 0x01, 0x00, 0x00, 0x00, 0x10, 0x00, 0x00, 0x00, 0xa6, 0xfe, 0xff, 0xff, 0x00, 0x00, 0x00, 0x01, 0x10, 0x00, 0x00, 0x00, 0x10, 0x00, 0x00, 0x00, 0x07, 0x00, 0x00, 0x00, 0x44, 0x00, 0x00, 0x00, 0x30, 0xfe, 0xff, 0xff, 0x36, 0x00, 0x00, 0x00, 0x73, 0x65, 0x71, 0x75, 0x65, 0x6e, 0x74, 0x69, 0x61, 0x6c, 0x5f, 0x31, 0x2f, 0x64, 0x65, 0x6e, 0x73, 0x65, 0x5f, 0x31, 0x2f, 0x52, 0x65, 0x6c, 0x75, 0x3b, 0x73, 0x65, 0x71, 0x75, 0x65, 0x6e, 0x74, 0x69, 0x61, 0x6c, 0x5f, 0x31, 0x2f, 0x64, 0x65, 0x6e, 0x73, 0x65, 0x5f, 0x31, 0x2f, 0x42, 0x69, 0x61, 0x73, 0x41, 0x64, 0x64, 0x00, 0x00, 0x01, 0x00, 0x00, 0x00, 0x10, 0x00, 0x00, 0x00, 0x06, 0xff, 0xff, 0xff, 0x00, 0x00, 0x00, 0x01, 0x10, 0x00, 0x00, 0x00, 0x10, 0x00, 0x00, 0x00, 0x06, 0x00, 0x00, 0x00, 0x28, 0x00, 0x00, 0x00, 0x90, 0xfe, 0xff, 0xff, 0x1b, 0x00, 0x00, 0x00, 0x73, 0x65, 0x71, 0x75, 0x65, 0x6e, 0x74, 0x69, 0x61, 0x6c, 0x5f, 0x31, 0x2f, 0x64, 0x65, 0x6e, 0x73, 0x65, 0x5f, 0x31, 0x2f, 0x4d, 0x61, 0x74, 0x4d, 0x75, 0x6c, 0x00, 0x02, 0x00, 0x00, 0x00, 0x10, 0x00, 0x00, 0x00, 0x05, 0x00, 0x00, 0x00, 0x4e, 0xff, 0xff, 0xff, 0x00, 0x00, 0x00, 0x01, 0x10, 0x00, 0x00, 0x00, 0x10, 0x00, 0x00, 0x00, 0x05, 0x00, 0x00, 0x00, 0x1c, 0x00, 0x00, 0x00, 0xd8, 0xfe, 0xff, 0xff, 0x0f, 0x00, 0x00, 0x00, 0x61, 0x72, 0x69, 0x74, 0x68, 0x2e, 0x63, 0x6f, 0x6e, 0x73, 0x74, 0x61, 0x6e, 0x74, 0x33, 0x00, 0x02, 0x00, 0x00, 0x00, 0x08, 0x00, 0x00, 0x00, 0x10, 0x00, 0x00, 0x00, 0x8a, 0xff, 0xff, 0xff, 0x00, 0x00, 0x00, 0x01, 0x10, 0x00, 0x00, 0x00, 0x10, 0x00, 0x00, 0x00, 0x04, 0x00, 0x00, 0x00, 0x1c, 0x00, 0x00, 0x00, 0x14, 0xff, 0xff, 0xff, 0x0f, 0x00, 0x00, 0x00, 0x61, 0x72, 0x69, 0x74, 0x68, 0x2e, 0x63, 0x6f, 0x6e, 0x73, 0x74, 0x61, 0x6e, 0x74, 0x32, 0x00, 0x02, 0x00, 0x00, 0x00, 0x01, 0x00, 0x00, 0x00, 0x08, 0x00, 0x00, 0x00, 0xc6, 0xff, 0xff, 0xff, 0x00, 0x00, 0x00, 0x01, 0x10, 0x00, 0x00, 0x00, 0x10, 0x00, 0x00, 0x00, 0x03, 0x00, 0x00, 0x00, 0x1c, 0x00, 0x00, 0x00, 0x50, 0xff, 0xff, 0xff, 0x0f, 0x00, 0x00, 0x00, 0x61, 0x72, 0x69, 0x74, 0x68, 0x2e, 0x63, 0x6f, 0x6e, 0x73, 0x74, 0x61, 0x6e, 0x74, 0x31, 0x00, 0x01, 0x00, 0x00, 0x00, 0x01, 0x00, 0x00, 0x00, 0x00, 0x00, 0x16, 0x00, 0x18, 0x00, 0x14, 0x00, 0x00, 0x00, 0x10, 0x00, 0x0c, 0x00, 0x08, 0x00, 0x00, 0x00, 0x00, 0x00, 0x00, 0x00, 0x07, 0x00, 0x16, 0x00, 0x00, 0x00, 0x00, 0x00, 0x00, 0x01, 0x10, 0x00, 0x00, 0x00, 0x10, 0x00, 0x00, 0x00, 0x02, 0x00, 0x00, 0x00, 0x1c, 0x00, 0x00, 0x00, 0xa0, 0xff, 0xff, 0xff, 0x0e, 0x00, 0x00, 0x00, 0x61, 0x72, 0x69, 0x74, 0x68, 0x2e, 0x63, 0x6f, 0x6e, 0x73, 0x74, 0x61, 0x6e, 0x74, 0x00, 0x00, 0x01, 0x00, 0x00, 0x00, 0x08, 0x00, 0x00, 0x00, 0x00, 0x00, 0x16, 0x00, 0x1c, 0x00, 0x18, 0x00, 0x00, 0x00, 0x14, 0x00, 0x10, 0x00, 0x0c, 0x00, 0x00, 0x00, 0x00, 0x00, 0x08, 0x00, 0x07, 0x00, 0x16, 0x00, 0x00, 0x00, 0x00, 0x00, 0x00, 0x01, 0x14, 0x00, 0x00, 0x00, 0x20, 0x00, 0x00, 0x00, 0x20, 0x00, 0x00, 0x00, 0x01, 0x00, 0x00, 0x00, 0x3c, 0x00, 0x00, 0x00, 0x02, 0x00, 0x00, 0x00, 0xff, 0xff, 0xff, 0xff, 0x05, 0x00, 0x00, 0x00, 0x04, 0x00, 0x04, 0x00, 0x04, 0x00, 0x00, 0x00, 0x1e, 0x00, 0x00, 0x00, 0x73, 0x65, 0x72, 0x76, 0x69, 0x6e, 0x67, 0x5f, 0x64, 0x65, 0x66, 0x61, 0x75, 0x6c, 0x74, 0x5f, 0x6b, 0x65, 0x72, 0x61, 0x73, 0x5f, 0x74, 0x65, 0x6e, 0x73, 0x6f, 0x72, 0x3a, 0x30, 0x00, 0x00, 0x02, 0x00, 0x00, 0x00, 0x01, 0x00, 0x00, 0x00, 0x05, 0x00, 0x00, 0x00, 0x02, 0x00, 0x00, 0x00, 0x20, 0x00, 0x00, 0x00, 0x04, 0x00, 0x00, 0x00, 0xf4, 0xff, 0xff, 0xff, 0x0e, 0x00, 0x00, 0x00, 0x00, 0x00, 0x00, 0x0e, 0x0c, 0x00, 0x0c, 0x00, 0x0b, 0x00, 0x00, 0x00, 0x00, 0x00, 0x04, 0x00, 0x0c, 0x00, 0x00, 0x00, 0x09, 0x00, 0x00, 0x00, 0x00, 0x00, 0x00, 0x09
};
const int blink_model_tflite_len = 3028;

const float model_mean[] = {477.7150413109949, 297.51363137123957, 72505.51145651947, 135.36297959462948, 47.49026254051517};
const float model_std[] = {908.1611346926362, 549.1269600471089, 273846.7611225526, 243.94603370936088, 97.98889724220643};

#endif